#ifndef SINE_MODEL_H
#define SINE_MODEL_H


unsigned int sine_model_len = 3168;
unsigned char sine_model[] = {
 0x1c, 0x00, 0x00, 0x00, 0x54, 0x46, 0x4c, 0x33, 0x14, 0x00, 0x20, 0x00,
  0x1c, 0x00, 0x18, 0x00, 0x14, 0x00, 0x10, 0x00, 0x0c, 0x00, 0x00, 0x00,
  0x08, 0x00, 0x04, 0x00, 0x14, 0x00, 0x00, 0x00, 0x1c, 0x00, 0x00, 0x00,
  0x90, 0x00, 0x00, 0x00, 0xe8, 0x00, 0x00, 0x00, 0x04, 0x07, 0x00, 0x00,
  0x14, 0x07, 0x00, 0x00, 0x0c, 0x0c, 0x00, 0x00, 0x03, 0x00, 0x00, 0x00,
  0x01, 0x00, 0x00, 0x00, 0x10, 0x00, 0x00, 0x00, 0x00, 0x00, 0x0a, 0x00,
  0x10, 0x00, 0x0c, 0x00, 0x08, 0x00, 0x04, 0x00, 0x0a, 0x00, 0x00, 0x00,
  0x0c, 0x00, 0x00, 0x00, 0x1c, 0x00, 0x00, 0x00, 0x38, 0x00, 0x00, 0x00,
  0x0f, 0x00, 0x00, 0x00, 0x73, 0x65, 0x72, 0x76, 0x69, 0x6e, 0x67, 0x5f,
  0x64, 0x65, 0x66, 0x61, 0x75, 0x6c, 0x74, 0x00, 0x01, 0x00, 0x00, 0x00,
  0x04, 0x00, 0x00, 0x00, 0x98, 0xff, 0xff, 0xff, 0x09, 0x00, 0x00, 0x00,
  0x04, 0x00, 0x00, 0x00, 0x07, 0x00, 0x00, 0x00, 0x64, 0x65, 0x6e, 0x73,
  0x65, 0x5f, 0x32, 0x00, 0x01, 0x00, 0x00, 0x00, 0x04, 0x00, 0x00, 0x00,
  0xc6, 0xf9, 0xff, 0xff, 0x04, 0x00, 0x00, 0x00, 0x0b, 0x00, 0x00, 0x00,
  0x64, 0x65, 0x6e, 0x73, 0x65, 0x5f, 0x69, 0x6e, 0x70, 0x75, 0x74, 0x00,
  0x02, 0x00, 0x00, 0x00, 0x34, 0x00, 0x00, 0x00, 0x04, 0x00, 0x00, 0x00,
  0xdc, 0xff, 0xff, 0xff, 0x0c, 0x00, 0x00, 0x00, 0x04, 0x00, 0x00, 0x00,
  0x13, 0x00, 0x00, 0x00, 0x43, 0x4f, 0x4e, 0x56, 0x45, 0x52, 0x53, 0x49,
  0x4f, 0x4e, 0x5f, 0x4d, 0x45, 0x54, 0x41, 0x44, 0x41, 0x54, 0x41, 0x00,
  0x08, 0x00, 0x0c, 0x00, 0x08, 0x00, 0x04, 0x00, 0x08, 0x00, 0x00, 0x00,
  0x0b, 0x00, 0x00, 0x00, 0x04, 0x00, 0x00, 0x00, 0x13, 0x00, 0x00, 0x00,
  0x6d, 0x69, 0x6e, 0x5f, 0x72, 0x75, 0x6e, 0x74, 0x69, 0x6d, 0x65, 0x5f,
  0x76, 0x65, 0x72, 0x73, 0x69, 0x6f, 0x6e, 0x00, 0x0d, 0x00, 0x00, 0x00,
  0x18, 0x06, 0x00, 0x00, 0x10, 0x06, 0x00, 0x00, 0xc0, 0x05, 0x00, 0x00,
  0xa4, 0x05, 0x00, 0x00, 0x54, 0x05, 0x00, 0x00, 0x04, 0x05, 0x00, 0x00,
  0xf4, 0x00, 0x00, 0x00, 0xa4, 0x00, 0x00, 0x00, 0x9c, 0x00, 0x00, 0x00,
  0x94, 0x00, 0x00, 0x00, 0x8c, 0x00, 0x00, 0x00, 0x6c, 0x00, 0x00, 0x00,
  0x04, 0x00, 0x00, 0x00, 0x72, 0xfa, 0xff, 0xff, 0x04, 0x00, 0x00, 0x00,
  0x58, 0x00, 0x00, 0x00, 0x0c, 0x00, 0x00, 0x00, 0x08, 0x00, 0x0e, 0x00,
  0x08, 0x00, 0x04, 0x00, 0x08, 0x00, 0x00, 0x00, 0x10, 0x00, 0x00, 0x00,
  0x28, 0x00, 0x00, 0x00, 0x00, 0x00, 0x06, 0x00, 0x08, 0x00, 0x04, 0x00,
  0x06, 0x00, 0x00, 0x00, 0x04, 0x00, 0x00, 0x00, 0x01, 0x00, 0x00, 0x00,
  0xea, 0x03, 0x00, 0x00, 0x00, 0x00, 0x0a, 0x00, 0x10, 0x00, 0x0c, 0x00,
  0x08, 0x00, 0x04, 0x00, 0x0a, 0x00, 0x00, 0x00, 0x02, 0x00, 0x00, 0x00,
  0x02, 0x00, 0x00, 0x00, 0x04, 0x00, 0x00, 0x00, 0x06, 0x00, 0x00, 0x00,
  0x32, 0x2e, 0x31, 0x34, 0x2e, 0x30, 0x00, 0x00, 0xd6, 0xfa, 0xff, 0xff,
  0x04, 0x00, 0x00, 0x00, 0x10, 0x00, 0x00, 0x00, 0x31, 0x2e, 0x35, 0x2e,
  0x30, 0x00, 0x00, 0x00, 0x00, 0x00, 0x00, 0x00, 0x00, 0x00, 0x00, 0x00,
  0xc0, 0xf5, 0xff, 0xff, 0xc4, 0xf5, 0xff, 0xff, 0xc8, 0xf5, 0xff, 0xff,
  0xfe, 0xfa, 0xff, 0xff, 0x04, 0x00, 0x00, 0x00, 0x40, 0x00, 0x00, 0x00,
  0xc0, 0x2b, 0x0e, 0x3e, 0xdc, 0x69, 0x4d, 0x3f, 0x3e, 0x35, 0xd7, 0xbe,
  0xb5, 0x22, 0xa4, 0x3f, 0xc0, 0x6c, 0xf5, 0x3e, 0xed, 0x89, 0x88, 0x3f,
  0xbb, 0xe6, 0x79, 0xbf, 0xad, 0xc6, 0xfd, 0x3f, 0x5c, 0xb0, 0xf5, 0xbe,
  0x12, 0x6b, 0x5e, 0xbf, 0x7e, 0xf4, 0x16, 0xbf, 0xb1, 0x9c, 0x44, 0xbf,
  0x38, 0x51, 0xcf, 0xbe, 0x84, 0x6f, 0xad, 0xbe, 0x41, 0x1f, 0xce, 0x3e,
  0xf2, 0x13, 0x81, 0x3f, 0x4a, 0xfb, 0xff, 0xff, 0x04, 0x00, 0x00, 0x00,
  0x00, 0x04, 0x00, 0x00, 0x6d, 0xfe, 0x56, 0x3e, 0x8a, 0x41, 0xd4, 0x3d,
  0xe5, 0x82, 0xc0, 0x3d, 0x2e, 0xbe, 0x81, 0xbe, 0xfe, 0x1e, 0x47, 0x3e,
  0x4a, 0x42, 0xa0, 0xbd, 0x41, 0xde, 0x6c, 0xbe, 0x09, 0x83, 0x55, 0x3e,
  0x26, 0xb9, 0x60, 0x3e, 0xf8, 0xbf, 0x18, 0xbe, 0xdd, 0x21, 0xa2, 0x3e,
  0x5c, 0x27, 0xa2, 0x3d, 0xe6, 0x24, 0x87, 0x3e, 0x24, 0xdc, 0xbf, 0xbe,
  0x13, 0xcd, 0xb6, 0xbc, 0x2b, 0x69, 0xcf, 0xbe, 0x68, 0x21, 0x84, 0xbe,
  0xcc, 0xb5, 0xa0, 0xbe, 0xab, 0x6a, 0xe2, 0x3e, 0x47, 0xd7, 0xdf, 0x3e,
  0x10, 0x4b, 0x6a, 0x3d, 0x03, 0x0f, 0x2c, 0x3d, 0xb9, 0x55, 0x83, 0xbe,
  0x36, 0xc8, 0xde, 0xbe, 0xad, 0xba, 0xd9, 0x3e, 0x56, 0x11, 0x2a, 0x3e,
  0x40, 0xa4, 0x85, 0xbe, 0x4b, 0xc1, 0x93, 0x3e, 0xfc, 0xfd, 0x47, 0x3e,
  0x70, 0x89, 0x54, 0x3d, 0xbd, 0x3e, 0x02, 0x3e, 0xf0, 0x48, 0xfa, 0xbd,
  0x35, 0x82, 0x7b, 0xbe, 0xf6, 0xa3, 0x2d, 0x3e, 0xf1, 0xe0, 0x83, 0x3e,
  0xe9, 0xe1, 0xea, 0x3d, 0x00, 0xcc, 0xfa, 0x3a, 0x02, 0xf4, 0x3c, 0x3d,
  0x65, 0x6d, 0x56, 0xbd, 0x48, 0x93, 0x5a, 0x3e, 0x0f, 0x03, 0xda, 0xbe,
  0x77, 0x6f, 0xd5, 0xbe, 0x0d, 0x98, 0x2b, 0x3e, 0x31, 0xc4, 0x98, 0x3e,
  0x0f, 0xed, 0xaa, 0x3e, 0xc0, 0xc4, 0xf5, 0xbc, 0x3c, 0xf5, 0xb8, 0xbe,
  0xfc, 0x87, 0xd3, 0xbe, 0x2d, 0xfe, 0x01, 0x3e, 0x02, 0xe2, 0xb8, 0x3e,
  0xb2, 0x20, 0x39, 0xbe, 0x4c, 0x4a, 0xb9, 0x3d, 0xb5, 0x72, 0x8f, 0x3e,
  0xa2, 0x77, 0xe8, 0x3c, 0xd7, 0x43, 0xe3, 0x3e, 0xe6, 0xd4, 0xd7, 0x3e,
  0x97, 0xe9, 0xc6, 0xbe, 0x4a, 0x06, 0x5c, 0x3e, 0xc0, 0x27, 0xa7, 0xbe,
  0x12, 0x92, 0x35, 0x3e, 0x5b, 0x77, 0x64, 0xbe, 0xa9, 0x3b, 0xd1, 0x3e,
  0xd3, 0xaf, 0x73, 0x3e, 0x88, 0xc9, 0x5f, 0x3d, 0xcc, 0x64, 0xd7, 0x3d,
  0xf8, 0x51, 0x5d, 0xbd, 0xc6, 0x47, 0x0f, 0xbe, 0xe2, 0x8c, 0xb9, 0xbe,
  0x72, 0x28, 0x87, 0xbe, 0x80, 0xbd, 0x32, 0x3b, 0xb5, 0xcf, 0xa7, 0x3e,
  0xc0, 0x4d, 0x8e, 0xbe, 0xaf, 0x91, 0xc8, 0x3e, 0xf5, 0x1e, 0xd4, 0xbe,
  0x32, 0xb5, 0x2c, 0xbe, 0x80, 0xdd, 0x6b, 0xbc, 0x7e, 0x32, 0x54, 0x3e,
  0xe8, 0x47, 0x18, 0xbd, 0x86, 0x18, 0x4a, 0x3e, 0xb4, 0xd3, 0xd3, 0x3d,
  0x45, 0xca, 0x07, 0xbf, 0x3e, 0x66, 0x1d, 0xbf, 0x91, 0x40, 0xc9, 0x3e,
  0x11, 0xbc, 0x91, 0x3e, 0xea, 0x30, 0x1e, 0xbe, 0x1a, 0x18, 0xb4, 0x3d,
  0x5b, 0x3c, 0x25, 0xbd, 0xce, 0xa0, 0xd8, 0xbd, 0x60, 0xa1, 0x09, 0xbe,
  0xe0, 0x43, 0x90, 0x3c, 0x26, 0x8b, 0x09, 0x3e, 0x75, 0xef, 0x94, 0xbe,
  0x54, 0x37, 0xa8, 0xbe, 0x46, 0xf5, 0x0f, 0x3e, 0x6c, 0x54, 0x5d, 0x3e,
  0x4f, 0xc8, 0xb8, 0x3e, 0x06, 0x7f, 0x00, 0xbf, 0xb9, 0xb2, 0x67, 0xbe,
  0x1e, 0x2f, 0xec, 0x3e, 0x71, 0x5d, 0xbe, 0xbd, 0x94, 0xc4, 0xb0, 0x3d,
  0x45, 0xb5, 0x6f, 0x3d, 0xef, 0x9c, 0x08, 0xbf, 0x16, 0x9b, 0xed, 0xbe,
  0x68, 0x8d, 0x71, 0xbe, 0x83, 0xac, 0x93, 0xbe, 0x86, 0xf7, 0x26, 0xbf,
  0x9e, 0x5a, 0x35, 0xbe, 0x5c, 0x0a, 0x90, 0xbe, 0xd0, 0x55, 0x65, 0xbd,
  0x80, 0xac, 0xeb, 0x3c, 0x70, 0x0d, 0x0e, 0xbe, 0x53, 0x1f, 0x90, 0x3d,
  0x83, 0xbe, 0x02, 0x3f, 0x96, 0x8c, 0x55, 0x3e, 0xb3, 0x29, 0xc0, 0xbe,
  0xc4, 0xdc, 0xa7, 0x3d, 0x36, 0x40, 0x24, 0xbe, 0xb7, 0xd0, 0x2d, 0x3e,
  0x82, 0x45, 0x5f, 0x3e, 0x6f, 0x8e, 0xdc, 0x3e, 0xbc, 0x32, 0x8e, 0xbd,
  0x40, 0x3c, 0x18, 0x3e, 0xf5, 0xb6, 0xb4, 0x3e, 0x35, 0x4a, 0x68, 0xbe,
  0x14, 0x32, 0xc2, 0xbe, 0xa4, 0xfb, 0xc3, 0x3e, 0x80, 0x94, 0x38, 0x3d,
  0x5b, 0x03, 0xbd, 0xbe, 0x74, 0xed, 0xbd, 0xbe, 0x00, 0x40, 0xab, 0x38,
  0xd2, 0x07, 0x94, 0xbe, 0x65, 0xa6, 0xad, 0xbe, 0x68, 0x0f, 0x9f, 0xbe,
  0x40, 0x17, 0x15, 0xbd, 0xcf, 0x5c, 0x96, 0x3e, 0x48, 0x7c, 0x67, 0xbd,
  0x0c, 0x55, 0xae, 0x3d, 0xed, 0xa0, 0x3c, 0xbe, 0xe8, 0x4c, 0x1d, 0xbe,
  0xbf, 0x49, 0x96, 0x3e, 0x23, 0xf2, 0xb1, 0x3e, 0x4b, 0x65, 0xd9, 0x3e,
  0x4e, 0x0a, 0x7e, 0x3e, 0x17, 0x76, 0x13, 0xbe, 0xb2, 0xcf, 0x19, 0xbf,
  0x6f, 0xc9, 0x2d, 0xbe, 0x5a, 0x82, 0xf5, 0x3e, 0x47, 0x8b, 0x9d, 0x3e,
  0xb3, 0x34, 0xdb, 0xbe, 0xc5, 0xd3, 0xcd, 0xbd, 0x10, 0xc8, 0x37, 0xbe,
  0xba, 0x6b, 0x1b, 0xbe, 0xac, 0x89, 0xee, 0x3d, 0x37, 0x09, 0x2c, 0xbf,
  0x9f, 0x3a, 0x9c, 0x3e, 0x1d, 0xd2, 0xbb, 0x3e, 0x78, 0x5e, 0x65, 0xbe,
  0x24, 0xbf, 0xff, 0x3d, 0x5a, 0x43, 0x10, 0xbe, 0x7f, 0x44, 0x40, 0xbc,
  0x1a, 0xd0, 0x01, 0x3e, 0xda, 0xe6, 0x79, 0x3e, 0x1c, 0xc7, 0xaa, 0xbe,
  0x80, 0x66, 0x5b, 0x3c, 0xdd, 0xcb, 0xf1, 0x3e, 0x65, 0xa5, 0x77, 0xbe,
  0xa0, 0x1d, 0xd6, 0x3d, 0xbc, 0xee, 0xce, 0x3d, 0x8d, 0x31, 0xa8, 0xbe,
  0x12, 0x22, 0xea, 0x3e, 0x60, 0xb4, 0x0a, 0x3c, 0x39, 0x65, 0x4e, 0xbe,
  0x2c, 0x4d, 0xdb, 0x3d, 0x23, 0x5d, 0xc2, 0x3e, 0x08, 0x06, 0x81, 0xbe,
  0xf5, 0x71, 0xd0, 0xbe, 0xbb, 0x62, 0xd5, 0xbe, 0xc8, 0x07, 0x4c, 0x3d,
  0x9e, 0xde, 0x09, 0x3f, 0xd8, 0xb5, 0x72, 0xbd, 0x89, 0x25, 0x69, 0xbd,
  0x8a, 0x4f, 0x3a, 0xbe, 0xbf, 0x96, 0xb0, 0xbe, 0x0f, 0x52, 0xbe, 0x3e,
  0xf2, 0x6c, 0x6f, 0x3e, 0xda, 0xfd, 0xde, 0xbe, 0x30, 0x45, 0x06, 0x3d,
  0xcb, 0xf8, 0x88, 0x3e, 0xc4, 0xa8, 0xca, 0x3d, 0x02, 0x64, 0xa5, 0xbe,
  0xd6, 0x84, 0xcc, 0xbe, 0x7e, 0xc2, 0x3b, 0xbe, 0x00, 0xf6, 0x1e, 0x3d,
  0x1a, 0x9f, 0x9b, 0xbe, 0x62, 0x9e, 0x80, 0xbe, 0xc4, 0x7d, 0x1c, 0xbe,
  0xad, 0x69, 0x9d, 0x3e, 0xea, 0x9a, 0x0c, 0x3e, 0x38, 0x1f, 0x0e, 0xbe,
  0x87, 0x54, 0x8d, 0x3e, 0xc2, 0xc2, 0x1e, 0xbe, 0x08, 0x02, 0x71, 0xbe,
  0x79, 0xa9, 0x97, 0x3e, 0x90, 0xf3, 0x22, 0xbd, 0xbd, 0x92, 0xba, 0x3e,
  0x71, 0xb6, 0x85, 0x3e, 0xfb, 0x0c, 0xd2, 0x3e, 0x36, 0xfd, 0xb0, 0x3e,
  0x4d, 0xb6, 0x9b, 0xbe, 0x62, 0x64, 0xdf, 0x3d, 0xbe, 0x83, 0xad, 0x3e,
  0xe2, 0x9e, 0x06, 0xbe, 0x6b, 0xd2, 0xe5, 0x3c, 0xdc, 0xdd, 0x0e, 0xbe,
  0xea, 0xea, 0x9b, 0x3d, 0xb5, 0x7e, 0xc4, 0x3e, 0x6c, 0x34, 0xb8, 0xbe,
  0x2d, 0xf8, 0xee, 0x3e, 0xa0, 0xf0, 0x0f, 0xbd, 0x26, 0x38, 0x85, 0xbe,
  0x75, 0xa4, 0xb9, 0xbe, 0xfd, 0x12, 0xb0, 0xbe, 0xb8, 0xba, 0xb5, 0xbd,
  0x98, 0xc8, 0xc2, 0x3e, 0x52, 0x94, 0xe0, 0x3e, 0x0c, 0xc0, 0x62, 0x3e,
  0x28, 0x91, 0xba, 0xbe, 0x72, 0xa2, 0x04, 0x3e, 0xeb, 0x59, 0x96, 0x3c,
  0xee, 0x3b, 0xd3, 0x3e, 0xb8, 0x16, 0x3b, 0x3d, 0x2c, 0x69, 0xbf, 0xbd,
  0x74, 0x9c, 0xdd, 0xbd, 0xec, 0x0b, 0xa5, 0x3e, 0x82, 0xa1, 0x4b, 0x3e,
  0x87, 0xef, 0xaa, 0x3c, 0xac, 0x18, 0xad, 0xbd, 0xa8, 0x5c, 0x50, 0xbe,
  0x85, 0xd7, 0x85, 0x3e, 0xe6, 0xbe, 0x18, 0xbf, 0xd8, 0x4e, 0x0e, 0xbf,
  0xa6, 0xa6, 0xe5, 0x3e, 0x52, 0xbe, 0xd0, 0x3e, 0x10, 0x59, 0x82, 0xbc,
  0x06, 0xf7, 0xb6, 0x3c, 0xb1, 0x5a, 0xa0, 0xbe, 0x9e, 0x5e, 0xd2, 0xbe,
  0xb0, 0xcb, 0xba, 0xbe, 0x82, 0x40, 0xa4, 0xbe, 0x7d, 0x24, 0xb0, 0x3d,
  0xa9, 0x56, 0x9e, 0x3e, 0x93, 0x15, 0x19, 0x3e, 0x80, 0xf6, 0x37, 0x3b,
  0x0b, 0x8b, 0xa0, 0x3e, 0x58, 0x18, 0xcd, 0xbe, 0x56, 0xff, 0xff, 0xff,
  0x04, 0x00, 0x00, 0x00, 0x40, 0x00, 0x00, 0x00, 0x15, 0x6f, 0xa0, 0x3e,
  0x58, 0x96, 0xa6, 0x3e, 0x11, 0xf4, 0x71, 0x3e, 0x4c, 0xf7, 0x2c, 0x3e,
  0x30, 0x4d, 0x2d, 0xbd, 0x76, 0x69, 0x8e, 0x3e, 0x29, 0x84, 0xc4, 0x3e,
  0xbc, 0xb6, 0xb3, 0x3e, 0xe8, 0xa0, 0x87, 0xbd, 0xf8, 0x3e, 0xe4, 0xbe,
  0xdb, 0xce, 0x0d, 0x3f, 0x20, 0x6d, 0x7e, 0xbe, 0xbf, 0x75, 0x9d, 0x3e,
  0x5e, 0x2e, 0x16, 0xbf, 0x36, 0x35, 0x11, 0x3b, 0x30, 0xff, 0x2b, 0xbd,
  0xa2, 0xff, 0xff, 0xff, 0x04, 0x00, 0x00, 0x00, 0x40, 0x00, 0x00, 0x00,
  0xd2, 0x86, 0xcb, 0xbe, 0x96, 0xad, 0x20, 0xbf, 0x9a, 0x62, 0x57, 0x3e,
  0x75, 0xdd, 0x0e, 0x3f, 0x00, 0x00, 0x00, 0x00, 0x65, 0x54, 0x56, 0x3e,
  0x2b, 0x81, 0x00, 0xbf, 0x8e, 0xe9, 0xd7, 0xbe, 0x00, 0x00, 0x00, 0x00,
  0x00, 0x00, 0x00, 0x00, 0x04, 0x31, 0xff, 0x3c, 0x00, 0x00, 0x00, 0x00,
  0x61, 0x3c, 0xed, 0x3e, 0x00, 0x00, 0x00, 0x00, 0xa2, 0xd6, 0xae, 0xbc,
  0x00, 0x00, 0x00, 0x00, 0xee, 0xff, 0xff, 0xff, 0x04, 0x00, 0x00, 0x00,
  0x04, 0x00, 0x00, 0x00, 0x0b, 0xb7, 0xf3, 0xbd, 0x00, 0x00, 0x06, 0x00,
  0x08, 0x00, 0x04, 0x00, 0x06, 0x00, 0x00, 0x00, 0x04, 0x00, 0x00, 0x00,
  0x40, 0x00, 0x00, 0x00, 0xa6, 0x35, 0xca, 0xbd, 0x27, 0x41, 0x85, 0x3e,
  0x3b, 0xab, 0x94, 0xbd, 0xb7, 0x79, 0x9d, 0xbe, 0x00, 0x00, 0x00, 0x00,
  0xa3, 0x2f, 0x7f, 0x3e, 0x7d, 0x56, 0xb8, 0x3e, 0xd6, 0x01, 0x11, 0xbf,
  0x00, 0x00, 0x00, 0x00, 0x4c, 0x90, 0xb4, 0x3e, 0x05, 0xc3, 0x50, 0xbd,
  0x31, 0xe5, 0xa5, 0x3e, 0x00, 0x00, 0x00, 0x00, 0xdf, 0xb4, 0xef, 0xbc,
  0x28, 0x55, 0xcc, 0xbc, 0x4c, 0x61, 0x89, 0x3e, 0x20, 0xfb, 0xff, 0xff,
  0x24, 0xfb, 0xff, 0xff, 0x0f, 0x00, 0x00, 0x00, 0x4d, 0x4c, 0x49, 0x52,
  0x20, 0x43, 0x6f, 0x6e, 0x76, 0x65, 0x72, 0x74, 0x65, 0x64, 0x2e, 0x00,
  0x01, 0x00, 0x00, 0x00, 0x14, 0x00, 0x00, 0x00, 0x00, 0x00, 0x0e, 0x00,
  0x18, 0x00, 0x14, 0x00, 0x10, 0x00, 0x0c, 0x00, 0x08, 0x00, 0x04, 0x00,
  0x0e, 0x00, 0x00, 0x00, 0x14, 0x00, 0x00, 0x00, 0x1c, 0x00, 0x00, 0x00,
  0xd8, 0x00, 0x00, 0x00, 0xdc, 0x00, 0x00, 0x00, 0xe0, 0x00, 0x00, 0x00,
  0x04, 0x00, 0x00, 0x00, 0x6d, 0x61, 0x69, 0x6e, 0x00, 0x00, 0x00, 0x00,
  0x03, 0x00, 0x00, 0x00, 0x80, 0x00, 0x00, 0x00, 0x38, 0x00, 0x00, 0x00,
  0x04, 0x00, 0x00, 0x00, 0x9a, 0xff, 0xff, 0xff, 0x10, 0x00, 0x00, 0x00,
  0x00, 0x00, 0x00, 0x08, 0x0c, 0x00, 0x00, 0x00, 0x10, 0x00, 0x00, 0x00,
  0x9c, 0xfb, 0xff, 0xff, 0x01, 0x00, 0x00, 0x00, 0x09, 0x00, 0x00, 0x00,
  0x03, 0x00, 0x00, 0x00, 0x08, 0x00, 0x00, 0x00, 0x06, 0x00, 0x00, 0x00,
  0x02, 0x00, 0x00, 0x00, 0xca, 0xff, 0xff, 0xff, 0x10, 0x00, 0x00, 0x00,
  0x00, 0x00, 0x00, 0x08, 0x10, 0x00, 0x00, 0x00, 0x14, 0x00, 0x00, 0x00,
  0xba, 0xff, 0xff, 0xff, 0x00, 0x00, 0x00, 0x01, 0x01, 0x00, 0x00, 0x00,
  0x08, 0x00, 0x00, 0x00, 0x03, 0x00, 0x00, 0x00, 0x07, 0x00, 0x00, 0x00,
  0x05, 0x00, 0x00, 0x00, 0x01, 0x00, 0x00, 0x00, 0x00, 0x00, 0x0e, 0x00,
  0x16, 0x00, 0x00, 0x00, 0x10, 0x00, 0x0c, 0x00, 0x0b, 0x00, 0x04, 0x00,
  0x0e, 0x00, 0x00, 0x00, 0x18, 0x00, 0x00, 0x00, 0x00, 0x00, 0x00, 0x08,
  0x18, 0x00, 0x00, 0x00, 0x1c, 0x00, 0x00, 0x00, 0x00, 0x00, 0x06, 0x00,
  0x08, 0x00, 0x07, 0x00, 0x06, 0x00, 0x00, 0x00, 0x00, 0x00, 0x00, 0x01,
  0x01, 0x00, 0x00, 0x00, 0x07, 0x00, 0x00, 0x00, 0x03, 0x00, 0x00, 0x00,
  0x00, 0x00, 0x00, 0x00, 0x04, 0x00, 0x00, 0x00, 0x03, 0x00, 0x00, 0x00,
  0x01, 0x00, 0x00, 0x00, 0x09, 0x00, 0x00, 0x00, 0x01, 0x00, 0x00, 0x00,
  0x00, 0x00, 0x00, 0x00, 0x0a, 0x00, 0x00, 0x00, 0x8c, 0x03, 0x00, 0x00,
  0x1c, 0x03, 0x00, 0x00, 0xac, 0x02, 0x00, 0x00, 0x58, 0x02, 0x00, 0x00,
  0x10, 0x02, 0x00, 0x00, 0xc4, 0x01, 0x00, 0x00, 0x78, 0x01, 0x00, 0x00,
  0xf0, 0x00, 0x00, 0x00, 0x60, 0x00, 0x00, 0x00, 0x04, 0x00, 0x00, 0x00,
  0xb2, 0xfc, 0xff, 0xff, 0x00, 0x00, 0x00, 0x01, 0x14, 0x00, 0x00, 0x00,
  0x1c, 0x00, 0x00, 0x00, 0x1c, 0x00, 0x00, 0x00, 0x0a, 0x00, 0x00, 0x00,
  0x34, 0x00, 0x00, 0x00, 0x02, 0x00, 0x00, 0x00, 0xff, 0xff, 0xff, 0xff,
  0x01, 0x00, 0x00, 0x00, 0x9c, 0xfc, 0xff, 0xff, 0x19, 0x00, 0x00, 0x00,
  0x53, 0x74, 0x61, 0x74, 0x65, 0x66, 0x75, 0x6c, 0x50, 0x61, 0x72, 0x74,
  0x69, 0x74, 0x69, 0x6f, 0x6e, 0x65, 0x64, 0x43, 0x61, 0x6c, 0x6c, 0x3a,
  0x30, 0x00, 0x00, 0x00, 0x02, 0x00, 0x00, 0x00, 0x01, 0x00, 0x00, 0x00,
  0x01, 0x00, 0x00, 0x00, 0x0a, 0xfd, 0xff, 0xff, 0x00, 0x00, 0x00, 0x01,
  0x14, 0x00, 0x00, 0x00, 0x1c, 0x00, 0x00, 0x00, 0x1c, 0x00, 0x00, 0x00,
  0x09, 0x00, 0x00, 0x00, 0x68, 0x00, 0x00, 0x00, 0x02, 0x00, 0x00, 0x00,
  0xff, 0xff, 0xff, 0xff, 0x10, 0x00, 0x00, 0x00, 0xf4, 0xfc, 0xff, 0xff,
  0x4c, 0x00, 0x00, 0x00, 0x73, 0x65, 0x71, 0x75, 0x65, 0x6e, 0x74, 0x69,
  0x61, 0x6c, 0x2f, 0x64, 0x65, 0x6e, 0x73, 0x65, 0x5f, 0x31, 0x2f, 0x4d,
  0x61, 0x74, 0x4d, 0x75, 0x6c, 0x3b, 0x73, 0x65, 0x71, 0x75, 0x65, 0x6e,
  0x74, 0x69, 0x61, 0x6c, 0x2f, 0x64, 0x65, 0x6e, 0x73, 0x65, 0x5f, 0x31,
  0x2f, 0x52, 0x65, 0x6c, 0x75, 0x3b, 0x73, 0x65, 0x71, 0x75, 0x65, 0x6e,
  0x74, 0x69, 0x61, 0x6c, 0x2f, 0x64, 0x65, 0x6e, 0x73, 0x65, 0x5f, 0x31,
  0x2f, 0x42, 0x69, 0x61, 0x73, 0x41, 0x64, 0x64, 0x00, 0x00, 0x00, 0x00,
  0x02, 0x00, 0x00, 0x00, 0x01, 0x00, 0x00, 0x00, 0x10, 0x00, 0x00, 0x00,
  0x96, 0xfd, 0xff, 0xff, 0x00, 0x00, 0x00, 0x01, 0x14, 0x00, 0x00, 0x00,
  0x1c, 0x00, 0x00, 0x00, 0x1c, 0x00, 0x00, 0x00, 0x08, 0x00, 0x00, 0x00,
  0x60, 0x00, 0x00, 0x00, 0x02, 0x00, 0x00, 0x00, 0xff, 0xff, 0xff, 0xff,
  0x10, 0x00, 0x00, 0x00, 0x80, 0xfd, 0xff, 0xff, 0x46, 0x00, 0x00, 0x00,
  0x73, 0x65, 0x71, 0x75, 0x65, 0x6e, 0x74, 0x69, 0x61, 0x6c, 0x2f, 0x64,
  0x65, 0x6e, 0x73, 0x65, 0x2f, 0x4d, 0x61, 0x74, 0x4d, 0x75, 0x6c, 0x3b,
  0x73, 0x65, 0x71, 0x75, 0x65, 0x6e, 0x74, 0x69, 0x61, 0x6c, 0x2f, 0x64,
  0x65, 0x6e, 0x73, 0x65, 0x2f, 0x52, 0x65, 0x6c, 0x75, 0x3b, 0x73, 0x65,
  0x71, 0x75, 0x65, 0x6e, 0x74, 0x69, 0x61, 0x6c, 0x2f, 0x64, 0x65, 0x6e,
  0x73, 0x65, 0x2f, 0x42, 0x69, 0x61, 0x73, 0x41, 0x64, 0x64, 0x00, 0x00,
  0x02, 0x00, 0x00, 0x00, 0x01, 0x00, 0x00, 0x00, 0x10, 0x00, 0x00, 0x00,
  0x86, 0xfe, 0xff, 0xff, 0x00, 0x00, 0x00, 0x01, 0x10, 0x00, 0x00, 0x00,
  0x10, 0x00, 0x00, 0x00, 0x07, 0x00, 0x00, 0x00, 0x28, 0x00, 0x00, 0x00,
  0xf4, 0xfd, 0xff, 0xff, 0x19, 0x00, 0x00, 0x00, 0x73, 0x65, 0x71, 0x75,
  0x65, 0x6e, 0x74, 0x69, 0x61, 0x6c, 0x2f, 0x64, 0x65, 0x6e, 0x73, 0x65,
  0x5f, 0x32, 0x2f, 0x4d, 0x61, 0x74, 0x4d, 0x75, 0x6c, 0x00, 0x00, 0x00,
  0x02, 0x00, 0x00, 0x00, 0x01, 0x00, 0x00, 0x00, 0x10, 0x00, 0x00, 0x00,
  0xce, 0xfe, 0xff, 0xff, 0x00, 0x00, 0x00, 0x01, 0x10, 0x00, 0x00, 0x00,
  0x10, 0x00, 0x00, 0x00, 0x06, 0x00, 0x00, 0x00, 0x28, 0x00, 0x00, 0x00,
  0x3c, 0xfe, 0xff, 0xff, 0x19, 0x00, 0x00, 0x00, 0x73, 0x65, 0x71, 0x75,
  0x65, 0x6e, 0x74, 0x69, 0x61, 0x6c, 0x2f, 0x64, 0x65, 0x6e, 0x73, 0x65,
  0x5f, 0x31, 0x2f, 0x4d, 0x61, 0x74, 0x4d, 0x75, 0x6c, 0x00, 0x00, 0x00,
  0x02, 0x00, 0x00, 0x00, 0x10, 0x00, 0x00, 0x00, 0x10, 0x00, 0x00, 0x00,
  0x16, 0xff, 0xff, 0xff, 0x00, 0x00, 0x00, 0x01, 0x10, 0x00, 0x00, 0x00,
  0x10, 0x00, 0x00, 0x00, 0x05, 0x00, 0x00, 0x00, 0x24, 0x00, 0x00, 0x00,
  0x84, 0xfe, 0xff, 0xff, 0x17, 0x00, 0x00, 0x00, 0x73, 0x65, 0x71, 0x75,
  0x65, 0x6e, 0x74, 0x69, 0x61, 0x6c, 0x2f, 0x64, 0x65, 0x6e, 0x73, 0x65,
  0x2f, 0x4d, 0x61, 0x74, 0x4d, 0x75, 0x6c, 0x00, 0x02, 0x00, 0x00, 0x00,
  0x10, 0x00, 0x00, 0x00, 0x01, 0x00, 0x00, 0x00, 0x5a, 0xff, 0xff, 0xff,
  0x00, 0x00, 0x00, 0x01, 0x10, 0x00, 0x00, 0x00, 0x10, 0x00, 0x00, 0x00,
  0x04, 0x00, 0x00, 0x00, 0x34, 0x00, 0x00, 0x00, 0xc8, 0xfe, 0xff, 0xff,
  0x27, 0x00, 0x00, 0x00, 0x73, 0x65, 0x71, 0x75, 0x65, 0x6e, 0x74, 0x69,
  0x61, 0x6c, 0x2f, 0x64, 0x65, 0x6e, 0x73, 0x65, 0x2f, 0x42, 0x69, 0x61,
  0x73, 0x41, 0x64, 0x64, 0x2f, 0x52, 0x65, 0x61, 0x64, 0x56, 0x61, 0x72,
  0x69, 0x61, 0x62, 0x6c, 0x65, 0x4f, 0x70, 0x00, 0x01, 0x00, 0x00, 0x00,
  0x10, 0x00, 0x00, 0x00, 0xaa, 0xff, 0xff, 0xff, 0x00, 0x00, 0x00, 0x01,
  0x10, 0x00, 0x00, 0x00, 0x10, 0x00, 0x00, 0x00, 0x03, 0x00, 0x00, 0x00,
  0x38, 0x00, 0x00, 0x00, 0x18, 0xff, 0xff, 0xff, 0x29, 0x00, 0x00, 0x00,
  0x73, 0x65, 0x71, 0x75, 0x65, 0x6e, 0x74, 0x69, 0x61, 0x6c, 0x2f, 0x64,
  0x65, 0x6e, 0x73, 0x65, 0x5f, 0x32, 0x2f, 0x42, 0x69, 0x61, 0x73, 0x41,
  0x64, 0x64, 0x2f, 0x52, 0x65, 0x61, 0x64, 0x56, 0x61, 0x72, 0x69, 0x61,
  0x62, 0x6c, 0x65, 0x4f, 0x70, 0x00, 0x00, 0x00, 0x01, 0x00, 0x00, 0x00,
  0x01, 0x00, 0x00, 0x00, 0x00, 0x00, 0x16, 0x00, 0x18, 0x00, 0x14, 0x00,
  0x00, 0x00, 0x10, 0x00, 0x0c, 0x00, 0x08, 0x00, 0x00, 0x00, 0x00, 0x00,
  0x00, 0x00, 0x07, 0x00, 0x16, 0x00, 0x00, 0x00, 0x00, 0x00, 0x00, 0x01,
  0x10, 0x00, 0x00, 0x00, 0x10, 0x00, 0x00, 0x00, 0x02, 0x00, 0x00, 0x00,
  0x38, 0x00, 0x00, 0x00, 0x84, 0xff, 0xff, 0xff, 0x29, 0x00, 0x00, 0x00,
  0x73, 0x65, 0x71, 0x75, 0x65, 0x6e, 0x74, 0x69, 0x61, 0x6c, 0x2f, 0x64,
  0x65, 0x6e, 0x73, 0x65, 0x5f, 0x31, 0x2f, 0x42, 0x69, 0x61, 0x73, 0x41,
  0x64, 0x64, 0x2f, 0x52, 0x65, 0x61, 0x64, 0x56, 0x61, 0x72, 0x69, 0x61,
  0x62, 0x6c, 0x65, 0x4f, 0x70, 0x00, 0x00, 0x00, 0x01, 0x00, 0x00, 0x00,
  0x10, 0x00, 0x00, 0x00, 0x00, 0x00, 0x16, 0x00, 0x1c, 0x00, 0x18, 0x00,
  0x00, 0x00, 0x14, 0x00, 0x10, 0x00, 0x0c, 0x00, 0x00, 0x00, 0x00, 0x00,
  0x08, 0x00, 0x07, 0x00, 0x16, 0x00, 0x00, 0x00, 0x00, 0x00, 0x00, 0x01,
  0x14, 0x00, 0x00, 0x00, 0x20, 0x00, 0x00, 0x00, 0x20, 0x00, 0x00, 0x00,
  0x01, 0x00, 0x00, 0x00, 0x3c, 0x00, 0x00, 0x00, 0x02, 0x00, 0x00, 0x00,
  0xff, 0xff, 0xff, 0xff, 0x01, 0x00, 0x00, 0x00, 0x04, 0x00, 0x04, 0x00,
  0x04, 0x00, 0x00, 0x00, 0x1d, 0x00, 0x00, 0x00, 0x73, 0x65, 0x72, 0x76,
  0x69, 0x6e, 0x67, 0x5f, 0x64, 0x65, 0x66, 0x61, 0x75, 0x6c, 0x74, 0x5f,
  0x64, 0x65, 0x6e, 0x73, 0x65, 0x5f, 0x69, 0x6e, 0x70, 0x75, 0x74, 0x3a,
  0x30, 0x00, 0x00, 0x00, 0x02, 0x00, 0x00, 0x00, 0x01, 0x00, 0x00, 0x00,
  0x01, 0x00, 0x00, 0x00, 0x01, 0x00, 0x00, 0x00, 0x10, 0x00, 0x00, 0x00,
  0x0c, 0x00, 0x0c, 0x00, 0x0b, 0x00, 0x00, 0x00, 0x00, 0x00, 0x04, 0x00,
  0x0c, 0x00, 0x00, 0x00, 0x09, 0x00, 0x00, 0x00, 0x00, 0x00, 0x00, 0x09
 
};

#endif //SINE_MODEL_H